{
  "claim_class": "simulated_reference_and_analytical_estimate",
  "seed": 20260711,
  "golden_vector": {
    "inputs": [
      -78,
      87,
      104,
      -77,
      -90,
      -82,
      4,
      103,
      -99,
      -109,
      70,
      8,
      -2,
      30,
      -28,
      42,
      -32,
      100,
      24,
      92,
      -73,
      -45,
      91,
      -72,
      125,
      26,
      78,
      -94,
      67,
      -39,
      121,
      108,
      -38,
      86,
      -43,
      35,
      18,
      -116,
      15,
      -17,
      44,
      -72,
      5,
      75,
      111,
      13,
      -12,
      -2,
      85,
      -36,
      40,
      18,
      38,
      -87,
      66,
      19,
      -83,
      -51,
      28,
      32,
      -92,
      49,
      98,
      -69
    ],
    "weight_shape": [
      16,
      64
    ],
    "packed_weights_hex": "14615992565185826a0184000a806958a916594125a920544a512162215129804142185920144a6aa2068268140a92288126610969a15a21a60111511448681449242699951089812a690a40965221a59661416868a6a442156458194924242910645949089152925a9949268aaa695259501a192689120058a0009089a212692a214a6a1158aa9465a62626a8a540125829151465985021828021a4085a91625a26a26a449020669852686822918152a6a602909686a9aa15660841a6a44a51004452411aa64645859a422418194a81a59484aa42462861082620685512a61962414504988081a0864099688906a6a2514aa08852682940909a054212828a22",
    "protected_sidecar": [
      [
        0,
        3,
        5
      ],
      [
        7,
        12,
        -4
      ]
    ],
    "outputs": [
      -116,
      175,
      -290,
      41,
      -379,
      127,
      219,
      -19,
      -201,
      160,
      164,
      -138,
      755,
      -507,
      -238,
      138
    ],
    "exact_match": true
  },
  "kernel_estimates": [
    {
      "outputs": 4096,
      "inputs": 4096,
      "lanes": 8,
      "cycles": 2097152,
      "packed_weight_bytes": 4194304,
      "dense_int8_weight_bytes": 16777216,
      "packing_ratio": 4.0,
      "operations": 16777216,
      "operations_per_cycle": 8.0
    },
    {
      "outputs": 4096,
      "inputs": 4096,
      "lanes": 32,
      "cycles": 524288,
      "packed_weight_bytes": 4194304,
      "dense_int8_weight_bytes": 16777216,
      "packing_ratio": 4.0,
      "operations": 16777216,
      "operations_per_cycle": 32.0
    },
    {
      "outputs": 4096,
      "inputs": 4096,
      "lanes": 128,
      "cycles": 131072,
      "packed_weight_bytes": 4194304,
      "dense_int8_weight_bytes": 16777216,
      "packing_ratio": 4.0,
      "operations": 16777216,
      "operations_per_cycle": 128.0
    },
    {
      "outputs": 4096,
      "inputs": 4096,
      "lanes": 512,
      "cycles": 32768,
      "packed_weight_bytes": 4194304,
      "dense_int8_weight_bytes": 16777216,
      "packing_ratio": 4.0,
      "operations": 16777216,
      "operations_per_cycle": 512.0
    }
  ],
  "limitations": [
    "No RTL simulator or synthesis tool was available on this host.",
    "Cycle counts omit clock frequency, routing, DMA, memory stalls, and protected-path scheduling.",
    "This result is not FPGA-board performance evidence."
  ]
}
